#ifndef _MLP_FIRE_MODEL_H_
#define _MLP_FIRE_MODEL_H_

unsigned char mlp_fire_model[] = {
0x1c, 0x00, 0x00, 0x00, 0x54, 0x46, 0x4c, 0x33, 0x14, 0x00, 0x20, 0x00, 
0x1c, 0x00, 0x18, 0x00, 0x14, 0x00, 0x10, 0x00, 0x0c, 0x00, 0x00, 0x00, 
0x08, 0x00, 0x04, 0x00, 0x14, 0x00, 0x00, 0x00, 0x1c, 0x00, 0x00, 0x00, 
0x8c, 0x00, 0x00, 0x00, 0xe4, 0x00, 0x00, 0x00, 0xd0, 0x05, 0x00, 0x00, 
0xe0, 0x05, 0x00, 0x00, 0x84, 0x0b, 0x00, 0x00, 0x03, 0x00, 0x00, 0x00, 
0x01, 0x00, 0x00, 0x00, 0x04, 0x00, 0x00, 0x00, 0xe2, 0xf9, 0xff, 0xff, 
0x0c, 0x00, 0x00, 0x00, 0x1c, 0x00, 0x00, 0x00, 0x3c, 0x00, 0x00, 0x00, 
0x0f, 0x00, 0x00, 0x00, 0x73, 0x65, 0x72, 0x76, 0x69, 0x6e, 0x67, 0x5f, 
0x64, 0x65, 0x66, 0x61, 0x75, 0x6c, 0x74, 0x00, 0x01, 0x00, 0x00, 0x00, 
0x04, 0x00, 0x00, 0x00, 0x90, 0xff, 0xff, 0xff, 0x0a, 0x00, 0x00, 0x00, 
0x04, 0x00, 0x00, 0x00, 0x08, 0x00, 0x00, 0x00, 0x6f, 0x75, 0x74, 0x70, 
0x75, 0x74, 0x5f, 0x30, 0x00, 0x00, 0x00, 0x00, 0x01, 0x00, 0x00, 0x00, 
0x04, 0x00, 0x00, 0x00, 0xd2, 0xfa, 0xff, 0xff, 0x04, 0x00, 0x00, 0x00, 
0x0f, 0x00, 0x00, 0x00, 0x6b, 0x65, 0x72, 0x61, 0x73, 0x5f, 0x74, 0x65, 
0x6e, 0x73, 0x6f, 0x72, 0x5f, 0x31, 0x36, 0x00, 0x02, 0x00, 0x00, 0x00, 
0x34, 0x00, 0x00, 0x00, 0x04, 0x00, 0x00, 0x00, 0xdc, 0xff, 0xff, 0xff, 
0x0d, 0x00, 0x00, 0x00, 0x04, 0x00, 0x00, 0x00, 0x13, 0x00, 0x00, 0x00, 
0x43, 0x4f, 0x4e, 0x56, 0x45, 0x52, 0x53, 0x49, 0x4f, 0x4e, 0x5f, 0x4d, 
0x45, 0x54, 0x41, 0x44, 0x41, 0x54, 0x41, 0x00, 0x08, 0x00, 0x0c, 0x00, 
0x08, 0x00, 0x04, 0x00, 0x08, 0x00, 0x00, 0x00, 0x0c, 0x00, 0x00, 0x00, 
0x04, 0x00, 0x00, 0x00, 0x13, 0x00, 0x00, 0x00, 0x6d, 0x69, 0x6e, 0x5f, 
0x72, 0x75, 0x6e, 0x74, 0x69, 0x6d, 0x65, 0x5f, 0x76, 0x65, 0x72, 0x73, 
0x69, 0x6f, 0x6e, 0x00, 0x0e, 0x00, 0x00, 0x00, 0xe8, 0x04, 0x00, 0x00, 
0xe0, 0x04, 0x00, 0x00, 0xb0, 0x04, 0x00, 0x00, 0x98, 0x02, 0x00, 0x00, 
0x84, 0x02, 0x00, 0x00, 0x54, 0x02, 0x00, 0x00, 0x04, 0x02, 0x00, 0x00, 
0xb4, 0x00, 0x00, 0x00, 0xac, 0x00, 0x00, 0x00, 0xa4, 0x00, 0x00, 0x00, 
0x9c, 0x00, 0x00, 0x00, 0x94, 0x00, 0x00, 0x00, 0x74, 0x00, 0x00, 0x00, 
0x04, 0x00, 0x00, 0x00, 0x86, 0xfb, 0xff, 0xff, 0x04, 0x00, 0x00, 0x00, 
0x60, 0x00, 0x00, 0x00, 0x0c, 0x00, 0x00, 0x00, 0x08, 0x00, 0x0e, 0x00, 
0x08, 0x00, 0x04, 0x00, 0x08, 0x00, 0x00, 0x00, 0x10, 0x00, 0x00, 0x00, 
0x28, 0x00, 0x00, 0x00, 0x00, 0x00, 0x06, 0x00, 0x08, 0x00, 0x04, 0x00, 
0x06, 0x00, 0x00, 0x00, 0x04, 0x00, 0x00, 0x00, 0x01, 0x00, 0x00, 0x00, 
0xea, 0x03, 0x00, 0x00, 0x0c, 0x00, 0x18, 0x00, 0x14, 0x00, 0x10, 0x00, 
0x0c, 0x00, 0x04, 0x00, 0x0c, 0x00, 0x00, 0x00, 0xbb, 0xb3, 0xa5, 0x73, 
0x08, 0x68, 0x45, 0x30, 0x02, 0x00, 0x00, 0x00, 0x02, 0x00, 0x00, 0x00, 
0x04, 0x00, 0x00, 0x00, 0x06, 0x00, 0x00, 0x00, 0x32, 0x2e, 0x31, 0x38, 
0x2e, 0x30, 0x00, 0x00, 0xf2, 0xfb, 0xff, 0xff, 0x04, 0x00, 0x00, 0x00, 
0x10, 0x00, 0x00, 0x00, 0x31, 0x2e, 0x31, 0x34, 0x2e, 0x30, 0x00, 0x00, 
0x00, 0x00, 0x00, 0x00, 0x00, 0x00, 0x00, 0x00, 0x54, 0xf6, 0xff, 0xff, 
0x58, 0xf6, 0xff, 0xff, 0x5c, 0xf6, 0xff, 0xff, 0x60, 0xf6, 0xff, 0xff, 
0x1e, 0xfc, 0xff, 0xff, 0x04, 0x00, 0x00, 0x00, 0x40, 0x01, 0x00, 0x00, 
0xfa, 0x58, 0x16, 0xbe, 0xf4, 0xb0, 0xcf, 0xbe, 0x0f, 0xee, 0x27, 0xbf, 
0x63, 0x02, 0x43, 0x3e, 0x40, 0x18, 0x36, 0x3f, 0xfd, 0x50, 0x6a, 0x3d, 
0xde, 0x4a, 0xe9, 0xbe, 0x17, 0xd9, 0x1d, 0x3d, 0x30, 0x49, 0x00, 0xbe, 
0x50, 0xcf, 0xdb, 0x3d, 0xf0, 0x60, 0xb2, 0x3d, 0x0f, 0x70, 0x96, 0x3e, 
0x9d, 0xfd, 0x2c, 0x3d, 0x3c, 0x83, 0xc3, 0x3e, 0xc0, 0xe3, 0xaa, 0x3d, 
0x3c, 0x3f, 0x93, 0x3e, 0x08, 0x20, 0xd4, 0x3e, 0x68, 0xb0, 0x07, 0x3e, 
0x4e, 0x6d, 0x37, 0xbe, 0x6a, 0x35, 0x2e, 0x3e, 0x6f, 0x89, 0x9c, 0xbe, 
0xad, 0xe1, 0xfb, 0x3d, 0x38, 0xdc, 0x3e, 0xbf, 0xbe, 0xc0, 0x1c, 0xbf, 
0x4b, 0x2e, 0xfc, 0x3e, 0x8e, 0x0f, 0x68, 0xbe, 0xde, 0xb0, 0xcc, 0xbd, 
0xe2, 0xa4, 0x1f, 0xbf, 0x70, 0x8d, 0x65, 0xbe, 0xd3, 0x2a, 0x7f, 0x3e, 
0xc2, 0x73, 0x04, 0xbd, 0x98, 0x75, 0x9f, 0x3c, 0xfe, 0x7f, 0x2d, 0xbf, 
0x6d, 0xb6, 0x00, 0xbf, 0x34, 0x79, 0x66, 0x3e, 0x3f, 0xc2, 0x04, 0xbe, 
0x94, 0xf5, 0xad, 0xbe, 0x80, 0x76, 0x20, 0xbf, 0x79, 0x79, 0x6e, 0x3d, 
0x61, 0x5b, 0xea, 0x3e, 0x7d, 0xa4, 0x5a, 0x3d, 0x69, 0x5d, 0x11, 0x3f, 
0x03, 0x2a, 0x30, 0x3f, 0x7e, 0xb3, 0x84, 0xbd, 0x43, 0x40, 0x78, 0xbe, 
0xab, 0x14, 0xa9, 0x3d, 0xe5, 0x85, 0xf8, 0xbe, 0x26, 0x1b, 0x6f, 0xbe, 
0xb5, 0xc3, 0x57, 0x3d, 0x1c, 0x51, 0x2f, 0x3f, 0xc8, 0x18, 0xf9, 0x3e, 
0xa4, 0xcf, 0xca, 0xbd, 0x26, 0x14, 0x8b, 0x3e, 0xa0, 0xc8, 0xc5, 0xbe, 
0x8b, 0x70, 0x00, 0x3e, 0x8c, 0x8b, 0x34, 0xbf, 0x03, 0xbc, 0x22, 0xbf, 
0x7c, 0xf1, 0xab, 0xbe, 0xd0, 0x2d, 0x8b, 0x3e, 0xf4, 0x00, 0xf3, 0x3d, 
0x4d, 0x27, 0xa9, 0x3e, 0x7f, 0xee, 0xce, 0x3e, 0x44, 0x42, 0xc0, 0x3e, 
0x02, 0x2d, 0x58, 0xbe, 0xc1, 0xc0, 0x46, 0xbf, 0x59, 0x80, 0x10, 0x3f, 
0x8f, 0x13, 0x41, 0x3e, 0x35, 0xaf, 0xf4, 0x3e, 0x9d, 0xe4, 0x2c, 0x3f, 
0xa1, 0x14, 0xcf, 0xbd, 0x72, 0xec, 0x24, 0x3f, 0xfb, 0xcc, 0x02, 0x3f, 
0x26, 0x04, 0x02, 0x3e, 0x0f, 0x85, 0x8c, 0xbc, 0xa1, 0xed, 0x94, 0x3d, 
0xea, 0xc0, 0xff, 0x3e, 0x25, 0xd1, 0x9d, 0x3d, 0x08, 0xa0, 0x44, 0x3e, 
0x67, 0x70, 0xc4, 0xbd, 0x92, 0x36, 0x11, 0xbf, 0x6a, 0xfd, 0xff, 0xff, 
0x04, 0x00, 0x00, 0x00, 0x40, 0x00, 0x00, 0x00, 0xbf, 0x34, 0x58, 0x3e, 
0xbb, 0xe0, 0x19, 0xbc, 0xa2, 0x32, 0x55, 0xbd, 0xbb, 0x2d, 0x21, 0xbc, 
0x0d, 0xeb, 0x92, 0x3e, 0x7c, 0x65, 0x23, 0x3e, 0xab, 0x1c, 0x4a, 0x3e, 
0xa2, 0xaf, 0x92, 0x3e, 0x2f, 0xf0, 0x56, 0x3e, 0x4f, 0xc8, 0x36, 0x3e, 
0x45, 0x86, 0xd8, 0xbd, 0x7f, 0xfc, 0x5e, 0x3e, 0x6b, 0x4a, 0x8a, 0x3e, 
0xef, 0x1f, 0x3d, 0x3e, 0x66, 0x4c, 0x3d, 0x3e, 0x9a, 0xb5, 0x41, 0x3e, 
0xb6, 0xfd, 0xff, 0xff, 0x04, 0x00, 0x00, 0x00, 0x20, 0x00, 0x00, 0x00, 
0x3d, 0x13, 0x9a, 0x3e, 0xa1, 0x66, 0xe7, 0xbc, 0x88, 0x74, 0x55, 0x3e, 
0x94, 0x97, 0x1c, 0x3e, 0xe3, 0x36, 0x19, 0x3e, 0xfd, 0x89, 0x16, 0x3e, 
0x8e, 0xa7, 0x3c, 0x3e, 0x81, 0x95, 0x98, 0x3e, 0xe2, 0xfd, 0xff, 0xff, 
0x04, 0x00, 0x00, 0x00, 0x04, 0x00, 0x00, 0x00, 0x58, 0x3f, 0xae, 0xbd, 
0xf2, 0xfd, 0xff, 0xff, 0x04, 0x00, 0x00, 0x00, 0x00, 0x02, 0x00, 0x00, 
0x78, 0x69, 0x1d, 0x3f, 0xcd, 0xae, 0x35, 0x3f, 0x63, 0x21, 0xa6, 0x3e, 
0x09, 0xf8, 0xfe, 0x3e, 0xa8, 0x7a, 0x03, 0x3e, 0xdc, 0xb9, 0x09, 0x3f, 
0x0b, 0xc2, 0x16, 0x3f, 0x8b, 0xca, 0x45, 0x3f, 0x98, 0x94, 0xa5, 0xbe, 
0xf7, 0x58, 0x5b, 0x3f, 0xad, 0x49, 0x55, 0xbe, 0xf9, 0xb9, 0x96, 0x3d, 
0xed, 0xa8, 0xcd, 0x3e, 0x9b, 0xf3, 0x8b, 0xbd, 0x47, 0x30, 0x0e, 0xbf, 
0xfb, 0x65, 0x53, 0xbe, 0xcd, 0x05, 0x72, 0xbe, 0xcf, 0x85, 0xee, 0x3e, 
0xce, 0x0a, 0xb8, 0x3e, 0x43, 0x00, 0xe9, 0x3e, 0xaf, 0x56, 0x45, 0xbe, 
0xb5, 0x9c, 0xaa, 0x3d, 0x5d, 0xe0, 0x36, 0xbe, 0x3e, 0x11, 0x32, 0xbc, 
0x5c, 0x9e, 0xd5, 0xbe, 0x69, 0x9b, 0xe6, 0xbe, 0xab, 0x65, 0xab, 0x3e, 
0x44, 0xe3, 0x74, 0x3e, 0x2c, 0x70, 0xd8, 0xbe, 0xd0, 0x1f, 0xd4, 0xbe, 
0x70, 0x61, 0x71, 0x3e, 0x74, 0x9d, 0x0c, 0xbe, 0x30, 0x76, 0xbb, 0x3d, 
0x02, 0x15, 0x55, 0xbe, 0x6c, 0x4c, 0xe2, 0x3e, 0x3c, 0xc7, 0x53, 0x3e, 
0x8a, 0x3e, 0x57, 0x3e, 0x48, 0xe1, 0xc5, 0xbe, 0x5a, 0x3a, 0x37, 0xbe, 
0xf8, 0x49, 0x2c, 0x3e, 0x0e, 0xf8, 0x82, 0x3e, 0xf2, 0x4c, 0x7c, 0xbd, 
0x94, 0x7b, 0x48, 0xbe, 0x2f, 0xc2, 0xaf, 0xbe, 0x74, 0x58, 0x0d, 0x3f, 
0x23, 0x26, 0x93, 0x3e, 0xa0, 0x60, 0x1c, 0x3e, 0x5e, 0x8c, 0xa0, 0x3e, 
0x4c, 0xf9, 0x0e, 0x3f, 0x5f, 0xf9, 0x08, 0xbe, 0x1a, 0xc8, 0xca, 0xbe, 
0x10, 0xf5, 0xe5, 0xbe, 0xfd, 0x9f, 0x00, 0x3d, 0x56, 0xf8, 0x92, 0x3e, 
0xd1, 0x3e, 0x09, 0x3f, 0xd2, 0x8a, 0x3c, 0x3f, 0xa0, 0xa3, 0xa3, 0xbe, 
0x43, 0xf8, 0x05, 0x3f, 0x08, 0x5d, 0x4a, 0xbe, 0x58, 0x2e, 0x0a, 0x3f, 
0x9a, 0xe9, 0x7a, 0x3d, 0xe8, 0x21, 0xb3, 0xbe, 0x38, 0x46, 0xaf, 0x3e, 
0x0e, 0x51, 0xe7, 0xbe, 0x94, 0x3d, 0x0f, 0x3e, 0x94, 0xfb, 0xc2, 0xbe, 
0x71, 0x89, 0x91, 0x3d, 0x48, 0xf9, 0x6f, 0x3e, 0x60, 0x06, 0x66, 0xbd, 
0x3c, 0x51, 0xac, 0x3e, 0x1b, 0xd9, 0xdc, 0xbe, 0x3d, 0xab, 0x46, 0xbe, 
0xcf, 0xed, 0xe4, 0x3e, 0xa8, 0xf0, 0xd1, 0xbe, 0x2c, 0x4a, 0x21, 0x3e, 
0xe6, 0xba, 0x6f, 0x3d, 0x68, 0x71, 0xca, 0x3e, 0xb1, 0xd5, 0xb7, 0x3e, 
0xf1, 0xe1, 0x29, 0x3f, 0xcb, 0x35, 0x08, 0x3f, 0xbd, 0x21, 0x1f, 0xbd, 
0x36, 0xca, 0xc0, 0xbe, 0x1e, 0x7d, 0x97, 0xbe, 0xf3, 0x5f, 0x97, 0xbd, 
0xc7, 0xfd, 0x2d, 0x3e, 0x51, 0x32, 0xae, 0x3e, 0x10, 0xc2, 0xc8, 0xbe, 
0x17, 0xfb, 0x7a, 0x3e, 0x9c, 0xb2, 0xa7, 0x3e, 0x40, 0x76, 0xfb, 0xbe, 
0x99, 0x65, 0xc0, 0xbd, 0x17, 0x59, 0x32, 0xbd, 0x43, 0x2d, 0xe0, 0x3d, 
0xde, 0xa7, 0x1c, 0x3f, 0x9b, 0x85, 0x0d, 0x3f, 0x63, 0xfa, 0xf2, 0x3e, 
0x17, 0x19, 0x65, 0x3e, 0xfb, 0xdc, 0xa0, 0x3d, 0x4d, 0x93, 0x85, 0xbc, 
0x02, 0xf5, 0xbd, 0xbe, 0xb8, 0x2e, 0x25, 0x3f, 0x42, 0xbf, 0x5e, 0x3e, 
0x90, 0x71, 0xd0, 0x3e, 0xbd, 0x9f, 0x6f, 0x3e, 0x32, 0x6c, 0xe5, 0xbe, 
0x53, 0xd9, 0x0e, 0xbc, 0x33, 0x9b, 0x13, 0xbe, 0x9b, 0x99, 0x93, 0x3e, 
0x49, 0x55, 0xe8, 0x3e, 0x87, 0xe7, 0xd1, 0xbe, 0x6c, 0xca, 0xed, 0xbe, 
0xf5, 0xf5, 0x5c, 0x3e, 0x5f, 0xa5, 0xb9, 0xbe, 0x62, 0x53, 0xce, 0x3e, 
0x41, 0x29, 0x19, 0x3f, 0x37, 0x7a, 0xb8, 0xbc, 0xfc, 0x44, 0x82, 0xbe, 
0x84, 0x3f, 0x01, 0xbf, 0xa0, 0x6f, 0xc5, 0x3e, 0xfa, 0x4f, 0xc1, 0x3e, 
0x69, 0xf2, 0x0f, 0x3f, 0x9d, 0x5f, 0xb1, 0x3c, 0x41, 0x81, 0xbb, 0x3e, 
0x05, 0x4b, 0x22, 0xbe, 0x3e, 0x09, 0x6f, 0x3f, 0x83, 0x81, 0x0d, 0x3e, 
0x7a, 0x64, 0x56, 0x3f, 0xf1, 0x6f, 0x0e, 0x3e, 0x00, 0x00, 0x06, 0x00, 
0x08, 0x00, 0x04, 0x00, 0x06, 0x00, 0x00, 0x00, 0x04, 0x00, 0x00, 0x00, 
0x20, 0x00, 0x00, 0x00, 0x62, 0x40, 0x98, 0xbe, 0x94, 0x53, 0x52, 0x3e, 
0x5a, 0xf7, 0x5c, 0x3f, 0x42, 0xfc, 0x59, 0xbf, 0xd1, 0xe1, 0x58, 0x3f, 
0x32, 0xcf, 0x3b, 0x3f, 0x84, 0xd2, 0x5c, 0xbf, 0x7d, 0x20, 0xac, 0x3e, 
0x78, 0xfa, 0xff, 0xff, 0x7c, 0xfa, 0xff, 0xff, 0x0f, 0x00, 0x00, 0x00, 
0x4d, 0x4c, 0x49, 0x52, 0x20, 0x43, 0x6f, 0x6e, 0x76, 0x65, 0x72, 0x74, 
0x65, 0x64, 0x2e, 0x00, 0x01, 0x00, 0x00, 0x00, 0x14, 0x00, 0x00, 0x00, 
0x00, 0x00, 0x0e, 0x00, 0x18, 0x00, 0x14, 0x00, 0x10, 0x00, 0x0c, 0x00, 
0x08, 0x00, 0x04, 0x00, 0x0e, 0x00, 0x00, 0x00, 0x14, 0x00, 0x00, 0x00, 
0x1c, 0x00, 0x00, 0x00, 0x08, 0x01, 0x00, 0x00, 0x0c, 0x01, 0x00, 0x00, 
0x10, 0x01, 0x00, 0x00, 0x04, 0x00, 0x00, 0x00, 0x6d, 0x61, 0x69, 0x6e, 
0x00, 0x00, 0x00, 0x00, 0x04, 0x00, 0x00, 0x00, 0xb0, 0x00, 0x00, 0x00, 
0x68, 0x00, 0x00, 0x00, 0x34, 0x00, 0x00, 0x00, 0x10, 0x00, 0x00, 0x00, 
0x00, 0x00, 0x0a, 0x00, 0x10, 0x00, 0x0c, 0x00, 0x08, 0x00, 0x04, 0x00, 
0x0a, 0x00, 0x00, 0x00, 0x0c, 0x00, 0x00, 0x00, 0x10, 0x00, 0x00, 0x00, 
0x01, 0x00, 0x00, 0x00, 0x01, 0x00, 0x00, 0x00, 0x0a, 0x00, 0x00, 0x00, 
0x01, 0x00, 0x00, 0x00, 0x09, 0x00, 0x00, 0x00, 0x9a, 0xff, 0xff, 0xff, 
0x10, 0x00, 0x00, 0x00, 0x00, 0x00, 0x00, 0x08, 0x0c, 0x00, 0x00, 0x00, 
0x10, 0x00, 0x00, 0x00, 0x24, 0xfb, 0xff, 0xff, 0x01, 0x00, 0x00, 0x00, 
0x09, 0x00, 0x00, 0x00, 0x03, 0x00, 0x00, 0x00, 0x08, 0x00, 0x00, 0x00, 
0x01, 0x00, 0x00, 0x00, 0x03, 0x00, 0x00, 0x00, 0xca, 0xff, 0xff, 0xff, 
0x10, 0x00, 0x00, 0x00, 0x00, 0x00, 0x00, 0x08, 0x10, 0x00, 0x00, 0x00, 
0x14, 0x00, 0x00, 0x00, 0xba, 0xff, 0xff, 0xff, 0x00, 0x00, 0x00, 0x01, 
0x01, 0x00, 0x00, 0x00, 0x08, 0x00, 0x00, 0x00, 0x03, 0x00, 0x00, 0x00, 
0x07, 0x00, 0x00, 0x00, 0x02, 0x00, 0x00, 0x00, 0x04, 0x00, 0x00, 0x00, 
0x00, 0x00, 0x0e, 0x00, 0x16, 0x00, 0x00, 0x00, 0x10, 0x00, 0x0c, 0x00, 
0x0b, 0x00, 0x04, 0x00, 0x0e, 0x00, 0x00, 0x00, 0x18, 0x00, 0x00, 0x00, 
0x00, 0x00, 0x00, 0x08, 0x18, 0x00, 0x00, 0x00, 0x1c, 0x00, 0x00, 0x00, 
0x00, 0x00, 0x06, 0x00, 0x08, 0x00, 0x07, 0x00, 0x06, 0x00, 0x00, 0x00, 
0x00, 0x00, 0x00, 0x01, 0x01, 0x00, 0x00, 0x00, 0x07, 0x00, 0x00, 0x00, 
0x03, 0x00, 0x00, 0x00, 0x00, 0x00, 0x00, 0x00, 0x06, 0x00, 0x00, 0x00, 
0x05, 0x00, 0x00, 0x00, 0x01, 0x00, 0x00, 0x00, 0x0a, 0x00, 0x00, 0x00, 
0x01, 0x00, 0x00, 0x00, 0x00, 0x00, 0x00, 0x00, 0x0b, 0x00, 0x00, 0x00, 
0x04, 0x04, 0x00, 0x00, 0xac, 0x03, 0x00, 0x00, 0x54, 0x03, 0x00, 0x00, 
0x18, 0x03, 0x00, 0x00, 0xdc, 0x02, 0x00, 0x00, 0x7c, 0x02, 0x00, 0x00, 
0x28, 0x02, 0x00, 0x00, 0x84, 0x01, 0x00, 0x00, 0xe0, 0x00, 0x00, 0x00, 
0x60, 0x00, 0x00, 0x00, 0x04, 0x00, 0x00, 0x00, 0x3e, 0xfc, 0xff, 0xff, 
0x00, 0x00, 0x00, 0x01, 0x14, 0x00, 0x00, 0x00, 0x1c, 0x00, 0x00, 0x00, 
0x1c, 0x00, 0x00, 0x00, 0x0b, 0x00, 0x00, 0x00, 0x34, 0x00, 0x00, 0x00, 
0x02, 0x00, 0x00, 0x00, 0xff, 0xff, 0xff, 0xff, 0x01, 0x00, 0x00, 0x00, 
0x28, 0xfc, 0xff, 0xff, 0x1b, 0x00, 0x00, 0x00, 0x53, 0x74, 0x61, 0x74, 
0x65, 0x66, 0x75, 0x6c, 0x50, 0x61, 0x72, 0x74, 0x69, 0x74, 0x69, 0x6f, 
0x6e, 0x65, 0x64, 0x43, 0x61, 0x6c, 0x6c, 0x5f, 0x31, 0x3a, 0x30, 0x00, 
0x02, 0x00, 0x00, 0x00, 0x01, 0x00, 0x00, 0x00, 0x01, 0x00, 0x00, 0x00, 
0x96, 0xfc, 0xff, 0xff, 0x00, 0x00, 0x00, 0x01, 0x14, 0x00, 0x00, 0x00, 
0x1c, 0x00, 0x00, 0x00, 0x1c, 0x00, 0x00, 0x00, 0x0a, 0x00, 0x00, 0x00, 
0x58, 0x00, 0x00, 0x00, 0x02, 0x00, 0x00, 0x00, 0xff, 0xff, 0xff, 0xff, 
0x01, 0x00, 0x00, 0x00, 0x80, 0xfc, 0xff, 0xff, 0x3e, 0x00, 0x00, 0x00, 
0x73, 0x65, 0x71, 0x75, 0x65, 0x6e, 0x74, 0x69, 0x61, 0x6c, 0x5f, 0x34, 
0x5f, 0x31, 0x2f, 0x64, 0x65, 0x6e, 0x73, 0x65, 0x5f, 0x31, 0x34, 0x5f, 
0x31, 0x2f, 0x4d, 0x61, 0x74, 0x4d, 0x75, 0x6c, 0x3b, 0x73, 0x65, 0x71, 
0x75, 0x65, 0x6e, 0x74, 0x69, 0x61, 0x6c, 0x5f, 0x34, 0x5f, 0x31, 0x2f, 
0x64, 0x65, 0x6e, 0x73, 0x65, 0x5f, 0x31, 0x34, 0x5f, 0x31, 0x2f, 0x41, 
0x64, 0x64, 0x00, 0x00, 0x02, 0x00, 0x00, 0x00, 0x01, 0x00, 0x00, 0x00, 
0x01, 0x00, 0x00, 0x00, 0x12, 0xfd, 0xff, 0xff, 0x00, 0x00, 0x00, 0x01, 
0x14, 0x00, 0x00, 0x00, 0x1c, 0x00, 0x00, 0x00, 0x1c, 0x00, 0x00, 0x00, 
0x09, 0x00, 0x00, 0x00, 0x7c, 0x00, 0x00, 0x00, 0x02, 0x00, 0x00, 0x00, 
0xff, 0xff, 0xff, 0xff, 0x08, 0x00, 0x00, 0x00, 0xfc, 0xfc, 0xff, 0xff, 
0x61, 0x00, 0x00, 0x00, 0x73, 0x65, 0x71, 0x75, 0x65, 0x6e, 0x74, 0x69, 
0x61, 0x6c, 0x5f, 0x34, 0x5f, 0x31, 0x2f, 0x64, 0x65, 0x6e, 0x73, 0x65, 
0x5f, 0x31, 0x33, 0x5f, 0x31, 0x2f, 0x4d, 0x61, 0x74, 0x4d, 0x75, 0x6c, 
0x3b, 0x73, 0x65, 0x71, 0x75, 0x65, 0x6e, 0x74, 0x69, 0x61, 0x6c, 0x5f, 
0x34, 0x5f, 0x31, 0x2f, 0x64, 0x65, 0x6e, 0x73, 0x65, 0x5f, 0x31, 0x33, 
0x5f, 0x31, 0x2f, 0x52, 0x65, 0x6c, 0x75, 0x3b, 0x73, 0x65, 0x71, 0x75, 
0x65, 0x6e, 0x74, 0x69, 0x61, 0x6c, 0x5f, 0x34, 0x5f, 0x31, 0x2f, 0x64, 
0x65, 0x6e, 0x73, 0x65, 0x5f, 0x31, 0x33, 0x5f, 0x31, 0x2f, 0x42, 0x69, 
0x61, 0x73, 0x41, 0x64, 0x64, 0x00, 0x00, 0x00, 0x02, 0x00, 0x00, 0x00, 
0x01, 0x00, 0x00, 0x00, 0x08, 0x00, 0x00, 0x00, 0xb2, 0xfd, 0xff, 0xff, 
0x00, 0x00, 0x00, 0x01, 0x14, 0x00, 0x00, 0x00, 0x1c, 0x00, 0x00, 0x00, 
0x1c, 0x00, 0x00, 0x00, 0x08, 0x00, 0x00, 0x00, 0x7c, 0x00, 0x00, 0x00, 
0x02, 0x00, 0x00, 0x00, 0xff, 0xff, 0xff, 0xff, 0x10, 0x00, 0x00, 0x00, 
0x9c, 0xfd, 0xff, 0xff, 0x61, 0x00, 0x00, 0x00, 0x73, 0x65, 0x71, 0x75, 
0x65, 0x6e, 0x74, 0x69, 0x61, 0x6c, 0x5f, 0x34, 0x5f, 0x31, 0x2f, 0x64, 
0x65, 0x6e, 0x73, 0x65, 0x5f, 0x31, 0x32, 0x5f, 0x31, 0x2f, 0x4d, 0x61, 
0x74, 0x4d, 0x75, 0x6c, 0x3b, 0x73, 0x65, 0x71, 0x75, 0x65, 0x6e, 0x74, 
0x69, 0x61, 0x6c, 0x5f, 0x34, 0x5f, 0x31, 0x2f, 0x64, 0x65, 0x6e, 0x73, 
0x65, 0x5f, 0x31, 0x32, 0x5f, 0x31, 0x2f, 0x52, 0x65, 0x6c, 0x75, 0x3b, 
0x73, 0x65, 0x71, 0x75, 0x65, 0x6e, 0x74, 0x69, 0x61, 0x6c, 0x5f, 0x34, 
0x5f, 0x31, 0x2f, 0x64, 0x65, 0x6e, 0x73, 0x65, 0x5f, 0x31, 0x32, 0x5f, 
0x31, 0x2f, 0x42, 0x69, 0x61, 0x73, 0x41, 0x64, 0x64, 0x00, 0x00, 0x00, 
0x02, 0x00, 0x00, 0x00, 0x01, 0x00, 0x00, 0x00, 0x10, 0x00, 0x00, 0x00, 
0xa6, 0xfe, 0xff, 0xff, 0x00, 0x00, 0x00, 0x01, 0x10, 0x00, 0x00, 0x00, 
0x10, 0x00, 0x00, 0x00, 0x07, 0x00, 0x00, 0x00, 0x30, 0x00, 0x00, 0x00, 
0x2c, 0xfe, 0xff, 0xff, 0x20, 0x00, 0x00, 0x00, 0x73, 0x65, 0x71, 0x75, 
0x65, 0x6e, 0x74, 0x69, 0x61, 0x6c, 0x5f, 0x34, 0x5f, 0x31, 0x2f, 0x64, 
0x65, 0x6e, 0x73, 0x65, 0x5f, 0x31, 0x32, 0x5f, 0x31, 0x2f, 0x4d, 0x61, 
0x74, 0x4d, 0x75, 0x6c, 0x00, 0x00, 0x00, 0x00, 0x02, 0x00, 0x00, 0x00, 
0x10, 0x00, 0x00, 0x00, 0x05, 0x00, 0x00, 0x00, 0xf6, 0xfe, 0xff, 0xff, 
0x00, 0x00, 0x00, 0x01, 0x10, 0x00, 0x00, 0x00, 0x10, 0x00, 0x00, 0x00, 
0x06, 0x00, 0x00, 0x00, 0x40, 0x00, 0x00, 0x00, 0x7c, 0xfe, 0xff, 0xff, 
0x30, 0x00, 0x00, 0x00, 0x73, 0x65, 0x71, 0x75, 0x65, 0x6e, 0x74, 0x69, 
0x61, 0x6c, 0x5f, 0x34, 0x5f, 0x31, 0x2f, 0x64, 0x65, 0x6e, 0x73, 0x65, 
0x5f, 0x31, 0x32, 0x5f, 0x31, 0x2f, 0x42, 0x69, 0x61, 0x73, 0x41, 0x64, 
0x64, 0x2f, 0x52, 0x65, 0x61, 0x64, 0x56, 0x61, 0x72, 0x69, 0x61, 0x62, 
0x6c, 0x65, 0x4f, 0x70, 0x00, 0x00, 0x00, 0x00, 0x01, 0x00, 0x00, 0x00, 
0x10, 0x00, 0x00, 0x00, 0x52, 0xff, 0xff, 0xff, 0x00, 0x00, 0x00, 0x01, 
0x10, 0x00, 0x00, 0x00, 0x10, 0x00, 0x00, 0x00, 0x05, 0x00, 0x00, 0x00, 
0x1c, 0x00, 0x00, 0x00, 0xd8, 0xfe, 0xff, 0xff, 0x0f, 0x00, 0x00, 0x00, 
0x61, 0x72, 0x69, 0x74, 0x68, 0x2e, 0x63, 0x6f, 0x6e, 0x73, 0x74, 0x61, 
0x6e, 0x74, 0x33, 0x00, 0x01, 0x00, 0x00, 0x00, 0x08, 0x00, 0x00, 0x00, 
0x8a, 0xff, 0xff, 0xff, 0x00, 0x00, 0x00, 0x01, 0x10, 0x00, 0x00, 0x00, 
0x10, 0x00, 0x00, 0x00, 0x04, 0x00, 0x00, 0x00, 0x1c, 0x00, 0x00, 0x00, 
0x10, 0xff, 0xff, 0xff, 0x0f, 0x00, 0x00, 0x00, 0x61, 0x72, 0x69, 0x74, 
0x68, 0x2e, 0x63, 0x6f, 0x6e, 0x73, 0x74, 0x61, 0x6e, 0x74, 0x32, 0x00, 
0x01, 0x00, 0x00, 0x00, 0x01, 0x00, 0x00, 0x00, 0xc2, 0xff, 0xff, 0xff, 
0x00, 0x00, 0x00, 0x01, 0x10, 0x00, 0x00, 0x00, 0x10, 0x00, 0x00, 0x00, 
0x03, 0x00, 0x00, 0x00, 0x1c, 0x00, 0x00, 0x00, 0x48, 0xff, 0xff, 0xff, 
0x0f, 0x00, 0x00, 0x00, 0x61, 0x72, 0x69, 0x74, 0x68, 0x2e, 0x63, 0x6f, 
0x6e, 0x73, 0x74, 0x61, 0x6e, 0x74, 0x31, 0x00, 0x02, 0x00, 0x00, 0x00, 
0x08, 0x00, 0x00, 0x00, 0x10, 0x00, 0x00, 0x00, 0x00, 0x00, 0x16, 0x00, 
0x18, 0x00, 0x14, 0x00, 0x00, 0x00, 0x10, 0x00, 0x0c, 0x00, 0x08, 0x00, 
0x00, 0x00, 0x00, 0x00, 0x00, 0x00, 0x07, 0x00, 0x16, 0x00, 0x00, 0x00, 
0x00, 0x00, 0x00, 0x01, 0x10, 0x00, 0x00, 0x00, 0x10, 0x00, 0x00, 0x00, 
0x02, 0x00, 0x00, 0x00, 0x1c, 0x00, 0x00, 0x00, 0x9c, 0xff, 0xff, 0xff, 
0x0e, 0x00, 0x00, 0x00, 0x61, 0x72, 0x69, 0x74, 0x68, 0x2e, 0x63, 0x6f, 
0x6e, 0x73, 0x74, 0x61, 0x6e, 0x74, 0x00, 0x00, 0x02, 0x00, 0x00, 0x00, 
0x01, 0x00, 0x00, 0x00, 0x08, 0x00, 0x00, 0x00, 0x00, 0x00, 0x16, 0x00, 
0x1c, 0x00, 0x18, 0x00, 0x00, 0x00, 0x14, 0x00, 0x10, 0x00, 0x0c, 0x00, 
0x00, 0x00, 0x00, 0x00, 0x08, 0x00, 0x07, 0x00, 0x16, 0x00, 0x00, 0x00, 
0x00, 0x00, 0x00, 0x01, 0x14, 0x00, 0x00, 0x00, 0x20, 0x00, 0x00, 0x00, 
0x20, 0x00, 0x00, 0x00, 0x01, 0x00, 0x00, 0x00, 0x40, 0x00, 0x00, 0x00, 
0x02, 0x00, 0x00, 0x00, 0xff, 0xff, 0xff, 0xff, 0x05, 0x00, 0x00, 0x00, 
0x04, 0x00, 0x04, 0x00, 0x04, 0x00, 0x00, 0x00, 0x21, 0x00, 0x00, 0x00, 
0x73, 0x65, 0x72, 0x76, 0x69, 0x6e, 0x67, 0x5f, 0x64, 0x65, 0x66, 0x61, 
0x75, 0x6c, 0x74, 0x5f, 0x6b, 0x65, 0x72, 0x61, 0x73, 0x5f, 0x74, 0x65, 
0x6e, 0x73, 0x6f, 0x72, 0x5f, 0x31, 0x36, 0x3a, 0x30, 0x00, 0x00, 0x00, 
0x02, 0x00, 0x00, 0x00, 0x01, 0x00, 0x00, 0x00, 0x05, 0x00, 0x00, 0x00, 
0x02, 0x00, 0x00, 0x00, 0x20, 0x00, 0x00, 0x00, 0x04, 0x00, 0x00, 0x00, 
0xf4, 0xff, 0xff, 0xff, 0x0e, 0x00, 0x00, 0x00, 0x00, 0x00, 0x00, 0x0e, 
0x0c, 0x00, 0x0c, 0x00, 0x0b, 0x00, 0x00, 0x00, 0x00, 0x00, 0x04, 0x00, 
0x0c, 0x00, 0x00, 0x00, 0x09, 0x00, 0x00, 0x00, 0x00, 0x00, 0x00, 0x09

};
unsigned int mlp_fire_model_len = 3048;

#endif
